TRT-7202-EntropyCalibration2
input_0: 3cb1ab7d
123: 3dcd53e7
124: 3bfea42e
125: 3bfea42e
126: 3cbe2522
127: 3bc07482
128: 3bc07482
129: 3c39fae1
130: 3c16d871
131: 3c178a3d
132: 3bf1f462
133: 3d5d8822
134: 3c05dbae
135: 3b59b2ea
136: 3c526746
137: 3bed0e25
138: 3c2ac1d9
139: 3c2ac1d9
140: 3d7acdd5
145: 3c85e928
141: 3c3e6742
146: 3c092220
142: 3bf32362
143: 3cd7a41a
144: 3c968baf
147: 3c996fec
148: 3c7193d7
149: 3d3dd897
150: 3c7d8973
151: 3c2c84ab
152: 3cb370de
153: 3c5d5cc5
154: 3cd2676d
155: 3c96ee08
156: 3d3699fd
161: 3c810da9
157: 3c79e23d
162: 3c580b53
158: 3c554e21
159: 3ceaa80d
160: 3cb42a4d
163: 3ccdd329
164: 3c99ab20
165: 3d665284
166: 3c9de2be
167: 3c8b2799
168: 3ca6ddcf
169: 3c923c5b
170: 3ccdfda0
171: 3ccd9e5b
172: 3d201fbe
177: 3c8cef42
173: 3c79c139
178: 3c9849c1
174: 3c819e43
175: 3d046fb7
176: 3ca87c9d
179: 3ccf8d7d
180: 3cb7beed
181: 3d00cf89
182: 3cd24541
183: 3cd24541
184: 3d8b3ee6
185: 3d078a55
186: 3d077b93
187: 3d16def2
188: 3d16def2
189: 3d16def2
197: 3c155662
(Unnamed Layer* 80) [Shuffle]_output: 3c155662
(Unnamed Layer* 81) [Fully Connected]_output: 3cf10f03
output_0: 3cf10f03
