TRT-7203-MinMaxCalibration
input_0: 3c010204
123: 3d0949b8
124: 3cb573eb
125: 3cb573eb
126: 3d3d8191
127: 3ca635b3
128: 3ca635b3
129: 3d2e96d6
130: 3d17b994
131: 3d2f3c4f
132: 3d2f3c4f
133: 3dfdf076
134: 3cc22a33
135: 3c91fe3b
136: 3cfc6ad6
137: 3cd2bf8d
138: 3d0f3ea3
139: 3d0f3ea3
140: 3d9e6d3e
145: 3cee02be
141: 3cb2cdca
146: 3c810790
142: 3cb2cdca
143: 3d4f6302
144: 3cfbe183
147: 3d05c91a
148: 3d05c91a
149: 3d6c111f
150: 3cb188da
151: 3c9c8510
152: 3ccf77eb
153: 3cb4b93b
154: 3d2689cd
155: 3d2689cd
156: 3d8b1f60
161: 3cbbfabf
157: 3ca6e236
162: 3cc6d780
158: 3ca6e236
159: 3cd74bc7
160: 3ca8b650
163: 3cf67d8f
164: 3cd80ead
165: 3d6b3d2d
166: 3c9b22d5
167: 3c68bd53
168: 3caaa810
169: 3cb1ee78
170: 3d1d24ee
171: 3d1d24ee
172: 3d2a637a
177: 3ca2dd3e
173: 3ca4eee9
178: 3c976891
174: 3ca4eee9
175: 3d011273
176: 3cc1221d
179: 3ccf192c
180: 3ccf192c
181: 3d13813c
182: 3cecaacd
183: 3cecaacd
184: 3d8c0d6a
185: 3cfe0e1e
186: 3cea5ee9
187: 3cd9e190
188: 3cd9e190
189: 3cd9e190
197: 3c282a7a
(Unnamed Layer* 80) [Shuffle]_output: 3c282a7a
(Unnamed Layer* 81) [Fully Connected]_output: 3d5a5fc7
output_0: 3d5a5fc7
